00001110
00100011
11000111
11001011
10111001
10111000
00001111
00110100
10011100
00010011
00011101
11111111
00011001
11100011
01000010
00100110
00011000
11010011
11111101
00101111
10011000
11000011
00101111
00110001
01000010
00110111
10110101
11111100
00110100
00011000
00111110
11010001
00000000
10110000
00001010
11000010
00000000
00000000
00000000
00000000
00000000
00000000
00000000
00000000
00000000
00000000
00000000
00000000
00000000
00000000
00000000
00000000
00000000
00000000
00000000
00000000
00000000
00000000
00000000
00000000
00000000
00000000
00000000
00000000
00000000
00000000
00000000
00000000
00000000
00000000
00000000
00000000
