11110101
11110100
11111011
00010111
11101000
00000000
00101110
11011111
00000111
00100100
11110001
11000111
00000101
11110010
11000000
00110101
00011100
00001001
00011000
11110100
10110000
11001001
11001001
11110101
11111111
00101110
00101010
00101001
11001010
00010010
11100100
11011110
00010000
11011110
00101011
11101001
10111001
11111010
00111101
11000100
00001101
10110011
00011110
00000000
00100100
11010010
00001110
00000011
00010111
11100001
11111011
00010000
11110011
11110000
00110110
11001010
11010110
00010010
00011010
11101011
11100001
11111000
00101000
11101001
11111110
00010110
11011111
11101110
11110001
11001001
00001011
11110111
00011110
00111110
00011001
00100010
11100101
11001110
11101000
11101101
00011001
00011101
00101000
10111110
11001101
11100010
11000100
00010000
00000110
11111100
00000000
00001110
00010000
11111000
00000010
00000101
11101001
11011000
11101111
00101110
11101111
00001100
11001100
11001100
00101001
11110111
00101110
00001011
11110100
00000011
11110010
00000101
11100101
00001101
11111111
11111100
00011001
11111110
00001101
00010101
00001010
11010111
11000100
00011100
11101001
01000001
11100100
11011000
