11011101
00101011
11111110
00010100
11100111
11101101
00011000
11111101
00100110
00100001
00000110
11100111
00001000
00010110
00011111
00001011
11011001
11101001
11110101
11101101
00001011
11101111
11100111
11101010
00000000
11011111
11100110
11110001
00010001
11101101
00011111
00010001
00001100
00010100
00010110
11111010
00011011
00001111
11111001
10110100
11111100
00100100
00100000
00010000
00000011
01000011
11101000
00000001
11101110
11011000
00011000
00011100
11011001
11101110
11111110
00000111
11101100
00001110
00001000
11111101
00011001
00011111
11010101
00010000
00010010
11101001
11100010
00111000
00101011
00000100
00001111
11110001
00110010
00000110
11101111
11001001
00001101
11101101
11000100
00001000
00010000
11010011
11010111
11101101
11011000
11100111
11101011
00110111
11100000
00001000
11101101
11100111
00101100
00001110
11001010
11110011
00000000
00010101
11111000
00010000
00000101
11111101
00101001
00000110
00010101
00101111
00011000
11011000
11111100
00001011
11110110
00000000
00101000
11100111
00101101
00101001
11110001
00100001
00100110
01000110
00010000
00000001
11011011
11110000
11110101
00000001
11100110
11110111
